<unk>	0
<s>	0
</s>	0
▁t	-0
he	-1
▁a	-2
in	-3
▁w	-4
▁s	-5
re	-6
▁o	-7
ha	-8
▁the	-9
er	-10
ou	-11
en	-12
▁m	-13
▁b	-14
is	-15
on	-16
ed	-17
▁to	-18
it	-19
▁an	-20
▁c	-21
▁f	-22
▁he	-23
ing	-24
▁of	-25
▁and	-26
▁d	-27
▁n	-28
▁h	-29
ll	-30
as	-31
ar	-32
▁be	-33
le	-34
▁in	-35
an	-36
▁p	-37
or	-38
▁ha	-39
at	-40
ot	-41
▁her	-42
es	-43
om	-44
▁I	-45
hat	-46
ly	-47
▁y	-48
▁e	-49
et	-50
li	-51
▁was	-52
▁re	-53
ion	-54
ve	-55
▁you	-56
ent	-57
ce	-58
▁“	-59
ver	-60
ld	-61
im	-62
st	-63
▁g	-64
▁not	-65
▁M	-66
ch	-67
se	-68
ut	-69
ow	-70
▁that	-71
gh	-72
▁as	-73
▁she	-74
▁it	-75
▁for	-76
id	-77
▁l	-78
▁th	-79
ct	-80
ith	-81
her	-82
ould	-83
▁with	-84
ab	-85
▁on	-86
▁his	-87
ay	-88
▁wh	-89
ter	-90
ir	-91
▁had	-92
▁Mr	-93
▁we	-94
▁su	-95
▁at	-96
▁B	-97
▁u	-98
al	-99
.”	-100
ad	-101
ri	-102
▁con	-103
▁so	-104
▁him	-105
ill	-106
▁have	-107
▁is	-108
ect	-109
ght	-110
very	-111
our	-112
ain	-113
▁L	-114
ro	-115
eth	-116
▁me	-117
pp	-118
▁E	-119
▁all	-120
▁my	-121
ation	-122
ur	-123
liz	-124
ore	-125
▁Eliz	-126
▁but	-127
▁T	-128
▁mu	-129
▁de	-130
abeth	-131
▁Elizabeth	-132
▁sa	-133
ss	-134
▁se	-135
lf	-136
qu	-137
▁by	-138
▁C	-139
▁whi	-140
▁H	-141
▁ne	-142
ke	-143
nd	-144
▁ex	-145
oo	-146
red	-147
ic	-148
end	-149
ess	-150
▁were	-151
am	-152
rom	-153
▁le	-154
if	-155
▁which	-156
▁com	-157
▁k	-158
▁W	-159
▁could	-160
▁been	-161
cy	-162
▁D	-163
self	-164
--	-165
all	-166
ard	-167
ag	-168
▁st	-169
▁no	-170
▁they	-171
▁The	-172
▁from	-173
▁your	-174
▁very	-175
▁would	-176
▁S	-177
▁am	-178
▁them	-179
▁do	-180
▁whe	-181
▁fe	-182
able	-183
▁who	-184
▁un	-185
,”	-186
▁what	-187
▁dis	-188
▁man	-189
arcy	-190
▁Darcy	-191
em	-192
▁their	-193
▁kn	-194
▁will	-195
art	-196
han	-197
▁li	-198
▁af	-199
▁said	-200
▁sh	-201
ul	-202
▁any	-203
ome	-204
ant	-205
est	-206
ough	-207
ance	-208
ort	-209
ong	-210
▁this	-211
▁such	-212
ley	-213
▁sp	-214
ure	-215
ity	-216
ra	-217
▁there	-218
ous	-219
il	-220
one	-221
▁al	-222
ther	-223
▁ag	-224
ved	-225
hing	-226
▁int	-227
ate	-228
▁v	-229
enn	-230
▁know	-231
▁ad	-232
▁per	-233
▁im	-234
itt	-235
▁Mrs	-236
nt	-237
ol	-238
ather	-239
ennet	-240
▁more	-241
▁Bennet	-242
▁than	-243
oll	-244
▁A	-245
ive	-246
▁much	-247
▁ac	-248
▁or	-249
▁J	-250
▁are	-251
iss	-252
▁can	-253
ment	-254
ight	-255
▁pre	-256
out	-257
au	-258
▁ab	-259
▁when	-260
ingley	-261
▁Bingley	-262
ost	-263
ane	-264
ind	-265
fore	-266
▁She	-267
▁pro	-268
▁must	-269
ood	-270
ister	-271
▁sister	-272
os	-273
and	-274
▁en	-275
ence	-276
ady	-277
▁Jane	-278
ak	-279
ast	-280
▁how	-281
ked	-282
▁part	-283
hi	-284
wn	-285
other	-286
op	-287
▁exp	-288
reat	-289
▁other	-290
ine	-291
ert	-292
▁Miss	-293
ven	-294
▁every	-295
ally	-296
ily	-297
pt	-298
▁rep	-299
▁att	-300
▁did	-301
ake	-302
ink	-303
ving	-304
▁But	-305
ru	-306
▁should	-307
?”	-308
▁one	-309
us	-310
▁qu	-311
▁j	-312
▁if	-313
ress	-314
▁comp	-315
way	-316
ham	-317
▁think	-318
leas	-319
age	-320
▁He	-321
▁ob	-322
ide	-323
▁soon	-324
▁again	-325
▁herself	-326
el	-327
ite	-328
ick	-329
▁before	-330
ry	-331
fect	-332
▁some	-333
di	-334
fe	-335
ble	-336
tter	-337
▁imp	-338
▁see	-339
▁tim	-340
ish	-341
▁never	-342
ject	-343
ins	-344
urn	-345
▁happ	-346
ond	-347
▁has	-348
ord	-349
▁app	-350
▁mar	-351
▁only	-352
hed	-353
▁pleas	-354
You	-355
▁though	-356
ings	-357
ions	-358
▁say	-359
▁great	-360
▁res	-361
▁It	-362
▁now	-363
▁after	-364
▁might	-365
un	-366
ner	-367
▁po	-368
▁fri	-369
▁time	-370
ever	-371
▁sha	-372
▁own	-373
▁too	-374
ought	-375
▁good	-376
ickham	-377
ose	-378
▁r	-379
▁well	-380
▁Wickham	-381
ng	-382
ittle	-383
are	-384
▁us	-385
ies	-386
ist	-387
▁Coll	-388
▁friend	-389
▁little	-390
▁Collins	-391
ie	-392
um	-393
▁up	-394
▁may	-395
▁most	-396
ried	-397
ness	-398
de	-399
lie	-400
la	-401
▁being	-402
▁loo	-403
▁hop	-404
▁Lady	-405
ise	-406
▁go	-407
dia	-408
ydia	-409
▁off	-410
te	-411
ame	-412
▁br	-413
ible	-414
▁Lydia	-415
ell	-416
▁feel	-417
▁N	-418
ary	-419
ree	-420
▁young	-421
▁fa	-422
▁without	-423
▁fam	-424
▁make	-425
ig	-426
ear	-427
augh	-428
▁nothing	-429
▁cont	-430
uc	-431
ound	-432
room	-433
▁day	-434
▁then	-435
ach	-436
ward	-437
▁G	-438
▁tw	-439
▁des	-440
▁shall	-441
▁even	-442
ertain	-443
ire	-444
▁cons	-445
th	-446
alk	-447
ci	-448
▁long	-449
ention	-450
ge	-451
ade	-452
▁P	-453
ice	-454
▁ent	-455
▁rem	-456
▁belie	-457
▁family	-458
led	-459
▁lo	-460
▁fir	-461
ful	-462
ass	-463
▁add	-464
shi	-465
▁dear	-466
ps	-467
,--	-468
per	-469
ether	-470
▁thought	-471
▁first	-472
har	-473
▁ass	-474
iness	-475
▁manner	-476
od	-477
ust	-478
▁out	-479
thing	-480
▁into	-481
ac	-482
▁pr	-483
bour	-484
▁over	-485
▁mother	-486
ount	-487
▁father	-488
▁op	-489
▁F	-490
▁like	-491
▁ever	-492
aughter	-493
▁letter	-494
ave	-495
▁two	-496
cc	-497
ouse	-498
▁supp	-499
▁daughter	-500
ated	-501
▁spe	-502
▁however	-503
we	-504
▁ar	-505
▁acc	-506
▁inc	-507
▁ret	-508
▁himself	-509
▁sc	-510
▁made	-511
▁Cather	-512
▁certain	-513
▁Catherine	-514
▁hope	-515
own	-516
fere	-517
pect	-518
med	-519
▁You	-520
iz	-521
▁sat	-522
▁last	-523
ber	-524
ced	-525
ten	-526
▁pers	-527
lied	-528
▁und	-529
▁give	-530
▁rece	-531
int	-532
ways	-533
▁house	-534
▁beg	-535
▁always	-536
ious	-537
▁rec	-538
▁away	-539
iv	-540
not	-541
ither	-542
▁They	-543
▁room	-544
▁wor	-545
▁about	-546
▁reg	-547
▁sub	-548
▁many	-549
▁mean	-550
hen	-551
ning	-552
▁cannot	-553
riage	-554
lt	-555
▁gr	-556
▁wr	-557
▁unc	-558
ied	-559
aint	-560
iner	-561
▁way	-562
▁expect	-563
ined	-564
▁affect	-565
▁return	-566
me	-567
ished	-568
▁pres	-569
▁sm	-570
light	-571
▁seem	-572
▁enough	-573
▁ans	-574
icul	-575
wards	-576
▁kind	-577
▁sure	-578
▁saw	-579
▁som	-580
▁Long	-581
for	-582
▁occ	-583
▁Gard	-584
▁felt	-585
▁gent	-586
▁just	-587
ssible	-588
▁speak	-589
▁replied	-590
▁Gardiner	-591
ces	-592
ged	-593
lot	-594
unt	-595
ause	-596
ract	-597
▁acqu	-598
▁pleasure	-599
▁O	-600
isf	-601
vour	-602
▁its	-603
ility	-604
▁under	-605
bt	-606
ea	-607
lem	-608
▁love	-609
▁wish	-610
▁express	-611
ened	-612
ended	-613
▁inde	-614
▁myself	-615
igh	-616
▁look	-617
▁pass	-618
▁quite	-619
▁subject	-620
ery	-621
izz	-622
ener	-623
ived	-624
ens	-625
ign	-626
ody	-627
▁set	-628
ately	-629
▁hear	-630
▁K	-631
body	-632
izzy	-633
ations	-634
▁often	-635
▁adv	-636
▁mor	-637
ction	-638
▁Char	-639
▁done	-640
▁inst	-641
▁where	-642
▁rel	-643
▁cried	-644
▁better	-645
▁acquaint	-646
ason	-647
vers	-648
▁bec	-649
▁vis	-650
bourn	-651
▁came	-652
lic	-653
▁cha	-654
▁till	-655
▁having	-656
▁really	-657
▁Longbourn	-658
less	-659
▁pla	-660
▁conc	-661
iffere	-662
▁object	-663
▁feelings	-664
ield	-665
ement	-666
▁turn	-667
▁believe	-668
▁gentlem	-669
▁eng	-670
▁mat	-671
▁sur	-672
lotte	-673
▁aunt	-674
▁dist	-675
▁less	-676
▁Charlotte	-677
itu	-678
ince	-679
▁And	-680
▁mom	-681
▁call	-682
▁disc	-683
▁whom	-684
▁heard	-685
▁visit	-686
▁moment	-687
ered	-688
illi	-689
ucas	-690
▁Her	-691
▁adm	-692
▁come	-693
▁walk	-694
▁want	-695
▁Lucas	-696
!”	-697
ew	-698
ably	-699
ford	-700
alked	-701
vi	-702
▁R	-703
fort	-704
▁end	-705
▁ill	-706
▁foll	-707
▁form	-708
▁Lizzy	-709
▁happy	-710
▁satisf	-711
▁brother	-712
erm	-713
▁ch	-714
▁exce	-715
▁hand	-716
icular	-717
illiam	-718
▁gener	-719
▁present	-720
▁particular	-721
ud	-722
irl	-723
nce	-724
▁gi	-725
▁fort	-726
▁count	-727
▁whole	-728
▁affection	-729
▁pl	-730
ember	-731
▁cour	-732
▁down	-733
▁girl	-734
▁read	-735
▁morning	-736
pr	-737
ers	-738
erv	-739
inu	-740
▁wom	-741
shire	-742
▁conf	-743
▁does	-744
▁word	-745
▁anything	-746
ety	-747
pos	-748
▁In	-749
haps	-750
owed	-751
▁inv	-752
▁our	-753
▁reason	-754
▁sisters	-755
xt	-756
▁ev	-757
▁tr	-758
ised	-759
▁lad	-760
ained	-761
▁opin	-762
▁seen	-763
▁take	-764
▁looked	-765
▁continu	-766
ks	-767
ider	-768
medi	-769
▁His	-770
▁engag	-771
▁indeed	-772
▁ladies	-773
▁evening	-774
ft	-775
▁Th	-776
▁jo	-777
▁dec	-778
▁comm	-779
▁talk	-780
gether	-781
▁found	-782
▁still	-783
▁appear	-784
itty	-785
ured	-786
▁ref	-787
field	-788
▁find	-789
▁tell	-790
ething	-791
▁immedi	-792
▁therefore	-793
ep	-794
lly	-795
oth	-796
wer	-797
▁car	-798
▁det	-799
▁sec	-800
▁added	-801
▁surpr	-802
▁uncle	-803
▁Nether	-804
▁delight	-805
▁happiness	-806
▁Netherfield	-807
ret	-808
most	-809
▁civ	-810
▁eas	-811
▁exc	-812
▁few	-813
▁har	-814
right	-815
▁beha	-816
▁place	-817
▁since	-818
ty	-819
▁ey	-820
▁ind	-821
▁next	-822
▁same	-823
▁told	-824
▁Kitty	-825
▁answer	-826
▁charact	-827
▁towards	-828
▁consider	-829
▁attention	-830
▁something	-831
day	-832
▁My	-833
ship	-834
▁ear	-835
▁obs	-836
▁When	-837
▁half	-838
▁world	-839
ern	-840
▁bet	-841
asion	-842
▁both	-843
▁home	-844
▁went	-845
▁convers	-846
▁opinion	-847
onel	-848
ently	-849
olonel	-850
▁inter	-851
▁perfect	-852
▁marriage	-853
▁character	-854
irc	-855
oubt	-856
▁chi	-857
▁dan	-858
▁hour	-859
▁left	-860
▁town	-861
▁seemed	-862
▁together	-863
▁certainly	-864
Oh	-865
ere	-866
ile	-867
▁el	-868
▁pe	-869
empt	-870
▁hon	-871
▁nor	-872
▁sil	-873
▁str	-874
ition	-875
▁here	-876
▁prev	-877
▁least	-878
▁marry	-879
▁person	-880
▁mention	-881
ER	-882
ne	-883
ween	-884
▁est	-885
▁yet	-886
▁circ	-887
▁each	-888
▁resol	-889
▁while	-890
▁Colonel	-891
HA	-892
And	-893
ial	-894
old	-895
ton	-896
ute	-897
▁gl	-898
ared	-899
▁ide	-900
▁spo	-901
▁gone	-902
▁hard	-903
▁sett	-904
▁leave	-905
▁either	-906
▁favour	-907
▁underst	-908
▁acquaintance	-909
▁thr	-910
▁year	-911
▁point	-912
▁passed	-913
▁respect	-914
▁received	-915
▁conversation	-916
ap	-917
▁CHA	-918
▁abs	-919
▁far	-920
▁cous	-921
▁mind	-922
▁coming	-923
▁immediately	-924
PT	-925
hes	-926
ves	-927
PTER	-928
▁dep	-929
aking	-930
▁began	-931
▁heart	-932
▁three	-933
▁whose	-934
▁woman	-935
reeable	-936
▁seeing	-937
ifferent	-938
▁CHAPTER	-939
▁between	-940
▁occasion	-941
ue	-942
Yes	-943
ual	-944
▁If	-945
ense	-946
ited	-947
nect	-948
that	-949
▁get	-950
▁ins	-951
▁new	-952
▁dire	-953
▁these	-954
▁almost	-955
oy	-956
ger	-957
res	-958
▁em	-959
ired	-960
▁For	-961
▁ext	-962
▁nat	-963
ingly	-964
▁Mery	-965
▁best	-966
▁knew	-967
▁meet	-968
▁once	-969
▁upon	-970
▁going	-971
▁means	-972
▁short	-973
▁Meryton	-974
▁because	-975
▁married	-976
▁possible	-977
pl	-978
ack	-979
▁pur	-980
▁tru	-981
▁wis	-982
▁inqu	-983
▁rest	-984
▁stay	-985
ctly	-986
▁din	-987
▁equ	-988
▁hus	-989
▁opp	-990
ondon	-991
viour	-992
▁chan	-993
▁cond	-994
▁life	-995
▁side	-996
ollect	-997
▁given	-998
▁known	-999
▁party	-1000
▁London	-1001
▁rather	-1002
▁behaviour	-1003
ck	-1004
aut	-1005
band	-1006
▁min	-1007
▁able	-1008
▁gave	-1009
▁doubt	-1010
▁fortun	-1011
▁regard	-1012
▁another	-1013
▁connect	-1014
▁friends	-1015
▁husband	-1016
▁perhaps	-1017
▁everything	-1018
air	-1019
its	-1020
▁ke	-1021
Your	-1022
aken	-1023
cept	-1024
cess	-1025
▁took	-1026
▁those	-1027
▁Pember	-1028
▁Pemberley	-1029
but	-1030
use	-1031
▁As	-1032
▁pow	-1033
▁eyes	-1034
▁sent	-1035
▁wond	-1036
▁others	-1037
▁concern	-1038
▁	-1039
e	-1040
t	-1041
a	-1042
o	-1043
n	-1044
i	-1045
h	-1046
s	-1047
r	-1048
d	-1049
l	-1050
u	-1051
m	-1052
c	-1053
y	-1054
f	-1055
w	-1056
g	-1057
,	-1058
b	-1059
p	-1060
.	-1061
v	-1062
k	-1063
I	-1064
“	-1065
”	-1066
M	-1067
;	-1068
-	-1069
B	-1070
z	-1071
x	-1072
T	-1073
L	-1074
E	-1075
H	-1076
’	-1077
C	-1078
W	-1079
q	-1080
j	-1081
D	-1082
S	-1083
A	-1084
?	-1085
!	-1086
Y	-1087
J	-1088
N	-1089
P	-1090
:	-1091
O	-1092
G	-1093
R	-1094
F	-1095
K	-1096
